111110110
1111111001111001
10010000
10000110
1111111010110111
1111111010010101
10100111000
100100110
1111111110011010
110
1101111
100001
1111111101101101
1010000010
1111111110001001
1111111101111011
1111111110100000
1111111110000010
11000001
1111111111010110
111101100
1111111110011001
101110111
1111111100110011
10101110
1111111011010111
1111111100000101
1111111100100000
1111111011011001
1100001
1111111101001000
1011111000
1111111101100000
1111111001001011
10010000
1000
1111111001010101
1111111011111001
11010010
10110011
1111111100110101
10000001
101011010
1111111111010010
1111111100110011
1111111111111111
101101011
110
1111110110100100
10010100
1111111011110000
1011000010
1111111001100011
11100001
11101001
1111111111011111
1111111000001101
10111100
1111111111001010
11100000
1111111001010011
110000011
10101000
1111111001010000
101110011
1010000000
1010110110
1010001
101110010
1111111011110010
110001000
1000010100
110111
1001100
11110110
0
10101
10110100
1111110100101010
10100100
1010010101
1111
100110
1111111000111010
1111111000000100
1111110110100111
1111111011001100
1000101
1111110101111110
11010101
11001100
1111010
111001011
11100101
1111111000111001
1111111101101111
1111111111011001
1111010
11010000
100110100
10000
1111110110011001
1111110110011110
1111111010010000
100110110
111001
1111111010110010
1111111010110010
1111111111111110
1111111111000100
1110111
10010
111000
1001011011
101101000
1011
1001101010
1111111101101011
1101001110
1111111100010110
1111111000100110
1111111111000000
1101001
11011100
1111111110111001
1100001111
101100100
1111110100001111
1010000
1111111110001110
11100100
1111111011111010
11100111
110101111
1111111111000011
1111111101011110
1111111000111010
1111111100010100
1111110111010111
1111111100110100
1111111000011110
100011100
1010101
11001010
1111111011100101
100101111
1010011
1100101
10001010
111111
1111111011001111
1111111111100100
1111011
110110110
1111111000110010
11111011
1111111101001110
100110001
1111111000011110
1111111111011000
1111111110101110
1111111101001111
1111111101010100
1111111001000010
10001011
11001010
1111111001100100
1000100
111000011
1111111110001010
110100101
1111111111011000
1111110010011111
1111111101101101
101110
1111111010010110
1111110101100100
1111111110001010
1111110100001100
1111111011000001
1111111111001100
1111100
1111111101011110
101101
1111111110011000
1111111100101010
1111111010110000
100000100
1101110
1111111010110000
10011001
101100101
1111110111001010
100000
110001111
1111111001001111
101010110
1110010
1111111111101011
1111111011100101
1111111111011010
100101010
1111111110001111
1111111101000111
1101001111
1001011110
1100110
1101011
1111111100101111
1111111111000111
1111111111111101
11010001
1111111111011100
1111011
1111111101010101
1111111101011010
1111111000000000
100001010
1111110110100100
1111110100101100
1111111111011000
1000000110
111101100
1111111110010101
1111111000001011
110000100
10111
1111110100110000
101111000
1000000
1111110111001110
101001011
1111111111000101
1111111101000101
1000111000
111010011
1111111010100010
1111111
1111111100001011
10110111
