1001110101
100010011
1101011
100
1111111100011100
1111111101011001
100101
1111111011011010
1111111010010111
111000
1111111011110100
11001111
11011111
110110001
10111000
11001010
1111110001010100
110101100
1110101
1111110110101001
1010010010
101110000
10000000
1111111011001110
1111111011111110
1111110111001011
1111110110101000
1111111110011111
1111111000101001
1111111111010111
1111111100011011
110110001
110011101
11101110
1111111101100011
1111111010010100
11110100
1111111000011001
10011000
11011110
1111111010101100
1111111101100000
1100111
100000111
1001000100
110001100
1001110010
1111111100111100
110001111
100110010
111111
1111110001000100
1111111110100101
10110101
10001101
1111111100010010
1111111100110100
1111111010110001
1111111010110010
1111111000000001
11010110
1111111101100111
1111110111110110
1100011110
110000
11100
1100010010
1111111110011110
1011111
1111111110111110
111001
110000000
1111111110101111
11100111
1111111011110011
1111111010010010
1111111110010010
1111111100001101
1111110101001010
1100110010
1000100111
100010001
1111111010100101
110010111
1001011100
1111111110010111
110110101
100111001
101011
1111110101100011
1111111010010100
1111111011011010
1110001
1111111100011010
1111111001001101
1111111110110011
1111111110101110
1111111101110111
101011100
1111111100011111
11001110
110111000
1111111010001110
11110101
100011001
1010111101
100000011
1111111110100100
101010110
1111111101011010
1101111111
1011
1111111111111000
1000011110
110101010
110101101
1111111111011000
1111111101001100
1111111111111111
1111110110111110
1111111110001011
1111111111100101
1001001
110000100
1111111010101011
1111111101110011
100111010
1100011
1111110101001011
11101111
1110000
1010011
101101111
1111111010011100
1111110101110100
10000110
1111110111011010
1001001010
1001111100
1110110
1111111101111100
1111111100011111
111100101
1111111110111011
10100011
1001101011
101101010
11001
1111110111010000
1111111100011111
100101100
110000000
1111111110000110
1011111001
1111111010100111
1001101011
11101011
1111111101101000
11111010
1111111111110101
1111111010110100
1110010100
1111111111001111
1111111111111100
1000100
1111111110101110
11001011
1111110110000010
1010101
1111111110011110
1111111111011110
1111111011101000
1111111110101111
1111111011111101
10110111
10100
1001000001
110001001
100100
100100000
1111111111110111
1111111110011100
110101100
110011001
1111111000110010
1000010
101010010
11101000
111100011
1111111111100000
1111110110110001
1100110000
110100011
1111111101110111
1111111111011100
1111111011011110
1111111100000110
1111111100100111
1111111111100000
1010011
11100111
1111111101100101
1111111011010100
1111111101111001
11001000
1011101110
1100010010
1111111011100110
10011
1111111011011111
1111111011100000
1000100010
1111110110011111
1111111001000100
1111111000110001
1111111110111111
1100111010
1000000111
101100110
10011011
1111111011110110
1111111010110010
1010100
1111111111000100
1001111110
1111111101110010
1111111000101110
111110111
1001100
1111110110111000
1001100000
110101
11011100
1111111010110110
111001000
1010111010
1010000111
1111111101101000
1111111101001110
1111111101000010
