11001
1001110
11000
111111010
1111110010011010
1111111100100011
1111110011010110
1111111101001100
1111111101001011
1111110111001011
1001110101
1111111101010110
1111111101010011
1001101
1111111100101110
1010111
10100110
1111111001111001
1011100
111100110
1111111000111000
10101011
1111110111111100
1111111010110011
1111111101000011
1000000110
1111111100001001
1111111001101111
1111111010111000
1111111111101101
1111111110100101
1010100
1111
1000011011
10100100
1111111111111001
1111111111101001
1111111101010010
1000001
100010
110011100
1111111110011111
1111100
1010000000
1111111000000000
1000111101
100
1111011
11001100
11001111
1111110111000011
1111111011111100
1001100110
1111111111010001
111111111
10111000
111110000
101010101
110011010
1111111101000101
1111001
101011100
11010010
1111111101110100
1111111100111011
1111111010100101
1111111011011011
1111111010111111
1111111011110100
11010110
1011110
1111110110110000
1010101110
1111111110010010
1000110
11011100
1111111101110000
1111111101001010
1111111000101100
1111111011111001
100001001
1111111000100010
1111111011000010
1111111110100110
1101110
110100011
1000001111
1111111111101011
1011010
1111111010100111
11111100
1111111011101110
10110
1101001100
101011100
1111111101110010
1001110011
11111011
11001
1111111001011101
1111111
11011011
1111111110000100
1111111011100010
1000110100
1111110111110110
1111111110111010
101000000
1111110000011001
11111010
1111111110000000
110111111
1111111111010100
10110111
100010100
1111111110001000
1111111100101010
1111111100001101
101101111
111011111
111011
1111111111101101
1111111101000001
1111110111100111
1111111101111101
11011011
1111111011001111
1111111010110100
1111111011011000
1111111111000001
11111010
10000110
1001010011
1111111010011110
101011111
1110111
1111111010101001
1111111110100100
1111111100101111
1111110111111111
11000000
1111111001101001
110011111
101111001
11100111
1011000
100100
11011000
10111111
110000000
100101001
1111111101110100
111100001
100111111
1111111110000010
100010001
11110110
1111111101001000
110011101
1111111010000101
1111111100001000
1111111110011110
101001101
10110010
1111111001010001
1100101
1111110111101000
11111011
1111111101010101
1111111100010000
1111111101011010
1111111101000001
1010001
1111111100010111
1100011
1111111110010001
1111111100110111
1111111101111111
110000
1111111011100000
1111111101100100
100011000
11001110
1111110101110001
1111111011101111
110101011
1111111100111110
1111111110110100
1111111001000100
10011100
1111111100101100
101001010
1111111111010100
110110
1111111100110101
11
1111111101100000
1111111110111101
1111111011000011
11111001
1111111011000001
1101101
1111111000110010
11101010
10111110
110000001
100000010
1111111110001101
1111111110101111
101100001
1111110110101001
1111111101011001
1111111110011001
10000
1111111010001000
1111111011011101
1001010
1111111110001000
101011011
1111110110001100
1111111001110101
1111110111100101
1011000
1111111101101010
1111111100000000
1111111010000111
101111010
1111111110001100
1111111101000101
1111111011000000
1111111101011101
1111111100001010
1111110110010110
1111111110100010
1111111010000001
101011111
1111111101010110
1111111001111111
10010
1111111111001000
