1111111110111000
1111111110011100
1111111101110010
1111111100011010
1111111011000011
1111111010011010
1111111101101001
100110111
11001101
10101011
111001101
110010001
1000001010
1111111101100110
10100101
11001001
1111111101000100
1111111010011111
1111110101010111
1111111110110110
10110111
10010111
111010110
1111111101110100
1111110100100111
1111111101001100
1111111011011110
1111110110001110
1000111110
101011010
1111110101010111
1111111101110010
10100101
1001001101
1111111000001110
1111111010001011
1
100001011
1000000111
1111111111000111
111011
1111111001001010
1111111110101110
100111000
111011001
110101000
1111101111101001
100111110
110101111
10010011
100110101
11100000
1111111111010000
1111110100100000
1111111010101100
1111111001111110
10001010
1111111101000001
110011111
101100100
11111010
10101011
101110010
110110
1111111111011101
1111111101011100
1111111011010011
1000000001
1111111011100110
1111111
111110
1111111100101101
1111111010100000
1111111101010100
1111111111111101
1111011
10110010
100110010
1111111010101110
1101101010
10110100
100000001
1111110110000111
100001
100000000
1111110101110010
1000001011
1111111111101110
1111111010000100
1111111111011100
1111111101010001
1111111101011011
101110000
1111111111011101
101111
101111110
1111111010100011
1111110100000000
1111111101010100
101000101
1111111011101101
1111111100100100
100101000
1000111
111110011
1111110101100110
11010101
10010001
10010010
1111111011011111
101010010
101000000
1111111011111110
11110010
100011
10000100
1111111110011100
1111111011110101
1111111010110100
10110100
1011001101
1111111111010011
10001101
1111111100101100
111001100
1111111011000110
101101000
1110
11010110
101000100
1111111100100010
11110010
101000
10000010
1010110010
1111111111010011
1111111001011100
1111111001110110
11000011
11010110
110111100
11010000
1000100101
1111111110001111
1111111010101010
1111111010100010
1001010100
1011110110
111100011
1011011111
10010011
111010100
1101100110
1000111001
1000101110
1111001001
101100001
11101100
110101000
1111111111111010
1111111001000010
11000101
11010000
10000011
1111111000100110
110110111
1111111011011010
1111111010100000
1000010
1111111101101000
1111111101000000
100010000
1001010011
1111111111111001
11001000
1111
1111111110010110
1111111110101001
1111111111111101
1111111100011011
10010000
1111111110010110
101100110
10000010
11001010
110111100
100101111
101100001
10001001
1111110110101000
1111111100100101
101100010
1111111001011110
1111111000111000
1111111111011010
1111110111010111
11011010
110100
11001000
1000
10001110
1011110101
1111110101110001
1111111010011111
111010
1111110
1111111101111111
1011110
101101101
111100011
1111111101110100
110101110
1111111010110010
1111111010000110
10100000
1111111011101011
1111111110011110
111101100
110100011
1111111111000101
11001110
1111111111101100
10000101
1111111001111000
1111110110100011
1111111011100111
101110110
1111111001001110
101000101
1001110011
100101101
1111111111100110
11100001
1001001
11100000
1111111001000111
1011110
1111110011011010
1111111100110110
1111111111101011
