1000111111
1111101111011111
1010100
101010101
101000
1000111010
1111111010000111
1111111100011111
1000110
10011110
1111111010000111
1111111111111100
111110101
1111
111100010
1001010100
110111011
1111111111011111
1111111101010101
1
1011011111
1111111011100001
1111111110000100
1111111110110110
10111011
1111111110101000
1111111010101011
1111111110110111
101111101
1111111111001111
1111111000000000
101111101
1101011
10000
1111111101110110
1111111111000011
100011110
10100001
1111111100100001
1111111010110100
11110
1111110101111100
1111111110111101
1111111100110001
1111110010101110
1000000110
10101000
1111111101011001
1111111101111101
1111111111110001
1111111101011010
1111111101101101
10101011
10100110
10001111
1111111000001100
111011
11111000
1111111110111011
1000011
1111111101000110
110111000
1111111000010000
1111111110111111
1111111000110000
1111111100010010
1111111110111011
1010111110
1111110111100011
110111011
1010100
1111111111001111
1111111110000011
1111111111101100
1001010100
10000011
1111111010100000
1111111101110111
1111111100100011
110100001
1111111010001111
1111111001111000
1001
1111111000100110
101101100
1111111110010011
101100000
1111111010001111
11010
1100
1111111011010000
11111010
1111111111001001
110101101
11001101
1111111101111111
1111111101110101
1111111001100101
101000000
1000010001
100100101
101100001
10101110
1111111000110110
10111110
10001100
1111111111011001
1111111000011001
10111011
1111110111011110
1111111010100000
11101110
10010000
111111010
1111111111101101
10000101
10001001110
1111111101100100
100101
1111111100010001
1110111
1111111001100100
11100110
101010
1111110110110011
1111111100101010
110001101
1001110
101110010
1111111111010100
1111111011100010
10011101
101110010
110011100
101100011
1111111101010010
10100000
1111111110000011
11001010
1111111011001011
11101010
10011010
1111111110101000
10001110
1111111001101111
1111110101101110
101111000
1100001
1111111111011110
100110101
1111111100110110
1111111101000001
1111110001110101
101001000
100101001
10101101
110101100
1111111101100110
1111110101000001
110110001
1011011000
1011010
1111110010110010
11011
111110
111100011
11001111
1111111011000100
11011
1111111011101100
111110000
1011110
1000100001
1111111101111110
1001010010
1111111101111001
1010011101
11000000
1111110001101100
1111111101110011
11000100
1011010
10000011
1100010
1111111111110110
10111100
1111111101101100
1111111011000010
1111111110110010
1111111001001000
111010001
1110110111
1111111001101100
100100100
1111111100101111
1111111001000011
101101
100011000
1111111110000111
1111111000101001
11101010
1111111011000000
1111101110010010
1011110
1111111001101000
1111110110111010
110000
1100000000
1011011101
1111111111000101
1111111001001010
1111111100011100
1111111100101010
1111110101011011
1111111010101001
1111111110110111
1001101010
1111111001100110
1111111110010011
1111111111000110
100011010
1111111010110111
11110000
11001
1111110110001010
111011100
1101110
1010010
100111100
1111111101011111
1111111001111101
1011001010
1111110010001010
1111111101000111
1111111100011100
1111110010111100
100010010
1100001100
1111111100011101
1111111111100100
