1111110100011000
1111110110101111
1111111110101001
1111111110110100
1111111011100001
1111111100010011
110000000
100111110
1111111111001011
111100100
1111110111111111
11010010
1111111111110101
1000011110
101100001
10001
1111110100011101
1111111000111011
100111
11111110
1111111110101010
10011001
1111111011101000
1111111110111100
1010001
100011000
10000010
1011100
11010010
1000110101
111011
1110111
1001
1111110111010100
101101111
1111111111101100
111
100111110
1111110101111110
1111111011001110
101011110
100110110
1111110110001110
1111111110100101
101010111
1111111101001110
100
100000011
100110000
1111110110001011
1000101111
10100
1111111011100001
1111110100100111
1111111110011010
11001010
101001000
1111111010111101
111111101
1111111011100101
110001111
11000001
10010111
1111111101001100
101111011
10000101001
1111111110110001
1111111111000110
1111111101101011
1111110011000010
1001101101
10010
11001011
1111111010011011
1111111011001011
11001
1111111001000000
1111111111111001
100001110
10111001
1010010
11
1111111100101001
0
1111
10100011
1000100
100101001
11010101
1011011110
1110101
10100101
1111111101011101
1111111101011110
1111111011100001
1111111100110010
1111111100110010
1111110110101011
1111110001110110
11100111
1111111110101101
100100011
1111111100111101
1010110
10111111
1111111110101111
1111111001010010
1111111111101000
1111111111001111
1111111100111101
11101000
1111111100100111
101100100
1111110111001100
101110011
1111110101101010
1111111101011100
1111111010111100
1111111011100000
1111111110110011
1111111110110101
1111111111100000
1111111110001011
1111111000011101
11110001
10001111
10110011
110111001
1010
1111111000000111
1111111011100101
110111000
11001000
110011100
1111110111000000
1000001000
1111111100111100
1111111010001011
1111110101001110
1111111110010101
1111110010101001
100101110
1111111101110011
10001000
1
101100110
10100010
1111110
1111111100000101
1111110011100100
1111000
1111110011001011
10000001
1111111101011100
100110011
101101000
100101111
1111111010011000
1111111110111010
11100101
1111111111011101
11011100
1011000
1101001
110
101010000
1100100011
1001001010
10
1111111111111011
1010000001
1000100101
1000100
1111111100010010
101111011
1111111100001010
1110111110
110011
1111111011110011
10001011
101000110
10010110
1111111111100011
10110010
101011011
101110100
10111101
110011
1111111101001110
1111111101001111
1001010010
100111100
100000
1111001110
10111011
1010111
100110
1111111101000100
1000110011
1100001111
101011110
101111010
10010011
1011011011
1111111100100000
1111111100100000
100111000
100110110
1111111110110110
1010100000
101101110
1111111100111100
1110000
1111111001101010
1011110000
1111111000000001
1111111000100101
1111111101001111
1111111011000000
1111111000010101
100110
1000000110
1111111100000101
10000000110
1010010010
1111111110101110
1111111100100101
1111111100010110
1111110111000011
1100100010
101000001
1111111110100110
11000001
1111110111001110
1010001000
1111111101100100
1111111100010000
11100110
1111111001101010
1000010111
