1111111111011111
1111111011100110
1111111011000111
10010111
110100101
11101000
1111110110010100
111010
1111111100111001
1111111110110001
111011
1111111010011010
1111111110011101
111100000
100000110
1111111001100010
1111111010000100
1111110111100111
11000011
1111111100100101
100111010
111011000
1111111000011000
1111111100001001
11110001
1111111011100111
100011001
100110000
1111110100010000
101010110
11111000
1111111101100001
1111110110111101
10000
1111111100111011
1111111101001010
11010001
1111111110110110
10100001
1010110110
1111111100101010
100011000
110110111
1111110110111110
10000100
1000011001
101
11011
1111111101111100
1110100
10000111
1111011
1111101011101010
1000001010
1111111111101100
11111101
100001010
1111111111000011
1111111010000101
1111110001010010
1111111100001011
1111111011100101
10010011
1111111101101010
11111100
101010110
110000010
100001111
100000011
11001110
101000000
101111100
1111111100111000
1001101010
1001111100
1000100000
1111111001101010
1111110110000100
1111111100010101
1111111110011100
1100010
1111111000000001
1111111101011000
1111111110011100
1111111001001100
1111111110100001
1111111110010001
1011111101
111101
1001001101
1111111011110000
10000101
1111111011001111
1111111101110010
1111111100001010
1111111011111010
11011001
100010101
1111111111001111
1111111010100100
1011001101
1111110110110000
1111111101010111
1111111111011001
1100111100
1111111100111011
1111111100101000
1111111101101100
100000110
10000110
1101110
1111111010111010
1001
1111111100101101
1000011101
1111111010010010
1000111111
100011100
10100001
110101011
1111111101111101
1111111011000100
100100100
1111111111010110
110000110
1100011
111110111
100100111
101101000
101001110
1011011
1111111110010100
100110001
1111111011100010
1111111111110110
10110001
1111111100010101
1111111111010001
110100100
1111111101000111
1111111000111111
10101101
1111111100001110
110101000
1111111101100011
110110
10011001
1111110010011011
10000110
1111111011011111
1111111010100101
1111111100101110
1111111111110101
11100000
1011101110
111110000
1111110111010010
1111111001101011
1111111111100011
1111111110110100
1111111110110000
111101101
11001011
1111111110100111
1011110010
1010100111
1111111101100001
1111111011110101
1111111100011100
1111111111011000
10001
1111111110010010
101100000
100100110
10010011
101101001
1111110001010111
1111110011111111
100010000
111010101
1111110101011111
1111110101111010
11101010
1111111011111100
1111111101000111
101001110
1100000
1111111100100110
1111111100011000
1111111001111100
101100000
10110110
1111111101001000
1011101001
1111111011100000
1111111111011000
1111110010011011
1111111010110101
1111111111011010
1111111100110000
1100111011
1111111111010111
110101111
110001000
1111111110111001
110001100
101100100
1111110110100000
1111111101101100
111000000
1111110001111000
100110101
100101111
1001100111
11000000
10110
1111111101000101
1111110110010100
11001010
1111111001011100
111000
1111110111001011
1111111110111010
1110100
1111111110011011
1000111
11010100
1011000
1111110110110000
10011011
1111111000010111
1111110101101110
10011000
1011100
1001011
110
1111111101001000
101010000
110001111
1001110
