1111111100010000
1111111001011100
100110000
110010110
1111111111010101
1111111100110011
1111111110110110
1111111011011100
10100
1001100
1
1111111110101111
1111110110010010
1111110011110101
101100
1111111010100001
11001011
1100101
100111000
1111111110111111
1111111101110101
101001110
1111110110100100
11011110
0
1010110
1111110111111101
1001101100
10101111
101101110
1111101
1111111010100010
1111111111101101
1001001101
10101110
100111100
10111111
1010111
1001111
1111111110110111
1000001101
1111110101010101
1111111111101001
1111101111001110
1111111000011111
101001111
111101
100001
1111111000010110
1111111111001001
110110
100001010
1111111000010110
111110010
1111111010011011
1111111101001011
1111111011110011
1111111110001110
10111011
1111110101111000
11110100
1111111011000110
1111111110011111
1111111000000010
111010011
1111111010000001
100110
1111111100110101
10000
0
101011100
1010110
1111111001101011
1111111011010100
10100110
1110
101111111
1111110111101000
11111111
1111111111100100
1111111110110111
1111110110111111
1111110100001100
1111111101110011
100100
1111111101000011
11011110
101011001
10110
1110100011
1111111111101100
1111111111010111
1010
111111010
1111111000101111
111111110
1111111101100100
1111111010010100
1100010101
1111111001001010
1111110110000001
1011
1111111001110011
1100101010
1111111010001001
1111111000010011
1111111100000000
10010000
11111011
111001000
10101110
1111111000111000
1111110111011100
1111110110100110
1111111011111001
1111111101101111
1001111111
110111010
1010100
110101101
1111111010111110
1111111010100011
1111110111001101
1010100001
11101011
1111111100011010
1111111000100000
111100010
1000111
1111111001101111
1111111100110100
1111111011000010
1111111000011010
1111111111000100
1111110101000001
1101111
1000011
1011
1111111110111000
1111111100100001
1111111000000001
10100101
1111000
100001
1111110111000001
100011001
1111110111110010
1111110110110000
1111111101001011
101011010
101111111
1111111101100010
100100001
1111111001011111
10000111010
110111110
1111111110010111
1000101101
1111110111110000
1111110110100101
1111110011000001
1111110100000101
10110100
1111111101101101
110011001
1111111101110111
11100100
1010001100
1110101
1110011110
1100100
1111111101111101
1111110010010100
1111111101111110
1111111111101011
1111111011000011
1111111011100101
1111111100011110
101000100
1111111010111010
1111111001011101
101101
1111111101000110
1111111001011101
10111100
1001100100
1111111111101110
1111111110111100
1111110111111110
11101101
1111111100010010
1111111001101001
100110011
101000101
110111010
1111110110010101
1111111111000001
11
11110101
100100
1111111110111010
1001001
1111111101011010
110110000
101010011
1000100000
1111111100011110
1110101010
1111111101000110
110000
1111111100000111
1000101
1111111011111000
1111111101100000
11000111
11101100
1111111111001100
1111110111101111
1100101011
100011100
11010100
1111111100010111
1111111110001001
111100
110010111
1100101
100001111
1111111010111111
1111111010101110
10101111
1111111000100011
1100111011
1111111010101111
11011101
1011001110
110101000
1111111111001000
1111111110010000
10000001
111001111
