101011000
1010110
111100
10010100
110100011
10101010
1111111100000100
1111111100110000
1111111110010000
11010101
1111111100011100
1111111110101110
1111110111111011
1001001111
1111111101001001
11101100
1000000001
1111110100011011
110101101
1111110111111001
1111111101101010
1000011100
10100000
1111111000010110
1111111010101001
101111101
1111111111111111
1011011011
100010010
10010110
1111111011100100
11011111
1111111011100100
10111
11010100
10111111
10001001
10000100
11101001
10011001
1111111100011101
11000011
1111111101110111
1111111111010101
1111111010101110
1111111010001100
1111111010001100
1111111000100001
1111111111100011
1111111101001100
11101111
1111111101100111
110010011
101110011
1111111101110110
110111001
1111111111001010
101110011
1111111000000100
1110010
1000011100
1111111010111100
1001100000
101001110
1111110101111100
1111111011111011
100001101
1111111010100101
1111111110101011
1111111100100110
1111111011110001
1111110101101001
1111111001011111
1101010
110101110
1111110111101010
111101101
1111111010000000
1111111110101010
1100110
1111110100011101
101
100011011
10011100
11011010
1111111101101010
11110100
1100100
1111110110101000
1111111010010111
101000110
100110
110001
111011100
1111111000101110
100100111
10110010
1111111011000011
11010010
1111111100100110
1111111110011111
10111100
1111110011110010
1010010000
11100101
1111111011001001
1001100001
101010101
11101010
1011001110
10101111
1111111111101011
1111111111111000
100011000
1100001
1111110111010101
1111111101110100
1000011
1111111011100010
1111111011000001
1111110011101010
110000
1111110010101011
1111111000011111
1111110111000110
11111011
1111111110111110
1111111110011000
1
1111111000011010
1111111000111111
10000110100
1011011
10110111
1111111010000101
11100000
10100
1110101
1111111101001110
1111111101101111
1111101
1111111011110111
1111111100000110
11100110
1000110
101011100
10000
1111111010001110
11101011
100110111
1111111101010111
1111111111011100
1111111001000110
1111111010110101
1111110011111101
110110010
1111111100010111
1111110110000110
100001111
1111111101010110
1111111010110101
1110010
101110001
1111111110011000
1111111101110011
100011000
1111111101101010
1111111111010001
1111110100111011
100000100
1111111
10101011
10101110
1111110010001011
11000101
1111110110110101
1111111111100100
101001001
1111111111011000
100010100
1111111011001101
1111111100110000
1111111101111100
10000101
1011
1111111000001110
10100
1111110101001101
1100011
1111111010111000
100001010
1111111101100101
1111111100000000
1111111001101110
1111111010011010
1001110010
110
101010
1111111000111010
1111111100011101
1111111101111110
110000111
100101111
1011000110
101100100
1111110110100010
11101
1111111000011001
10001011
10101010
1000010000
1111111110000001
1111111110010000
110000
1111111010100110
10000111
1011011
1000100111
1111111111001001
100011011
1111111110110101
110100110
1111111010111000
110000110
1111111110011001
1111111001011011
1011111
101101101
1111111000010010
1111111101001110
1111110111010001
1111111100010011
1011101
100001001
1111111111111001
1101110101
1111111111011110
1111111101111101
1111111010100001
1111111110010100
