1111111010100000
1100111001
1111111111001110
1111111110010011
1111111101000100
1111111110111011
1111110101100001
111001
10011111010
111011110
1111111110011011
1111111101110100
1111111111111110
1111111101111110
110000100
1111111100100010
1111111111000100
111010010
1111111101110111
1111110111111111
1111111100001111
110011011
1111111110110010
1111110110000011
1111111100001011
1111111001001101
1111110111111001
10010011
1010010010
100100110
1111010
10010
111001110
100000101
1111111111011110
1111000
110011
1111110101011100
10001001
10001111
10101110
1000010100
1111111001011100
1111111011100011
1110101
1111111101110110
1111111000101101
11111110
1111111100101101
1111111110110000
101110011
1111111100101100
1111110110110001
101110001
1100001
1111111100000011
1111110111100111
1111110111010100
100011010
1111111110000010
10100001
111111001
10001011
1111111010001000
1111110110011100
1111111010111110
1010110
110111001
1111111110100111
1000100000
110100001
100010001
1111010100
1111111000000100
1111111101111101
1111111000111110
1111111101101111
1111111111001100
110110101
11001011
1111111100111001
1001101100
1111110000110101
1111111010010010
100101
1111111100010001
110000100
1111111100010010
1001101
11100001
1111111001100111
100101
101111101
1100011
1111111011001001
1000101111
101110111
11000100
1000001000
1111110100110010
101011
1111111101100001
1111111110001111
1111111110011010
1111
10110001
101111100
1111111001110000
111000
1111111011110100
10010
1111111110100111
1111111001000101
11110100
1111111000011010
10000001
110010000
1111111101101000
1111111101011110
100
11010000
1111111000110010
1111111001111100
11001111
1111111110101000
110101
1111111010001111
101100001
1111111100001010
1111111101101011
101100000
1111110011110111
1011110
1101000011
1111111011011001
101000000
110011100
111000111
1111111000100100
1100011110
1101111
100101100
1111111110101100
1010110100
101010
1111000
1010011100
1111111010110010
1100100
1111111011000011
1000100111
1111111010101111
110111111
11111000
10101101
101011000
11001011
1010110011
10100001
1111111001010011
1111111101001101
1111111101111111
101010000
1100110111
1111111100011111
110010001
100111001
1111111001100100
1111110101000011
1111111100110111
110111011
1111111001110101
110000110
1111111100100111
1111111100001100
1111111001000000
1111111101001001
110010111
1000110000
1111111010011100
10000111
1111000
1111111001011010
100000011
100001010
1111111111001011
1111110100000100
111000100
1111110101001001
110111111
101010101
1000101100
11011100
11010100
11101101
10000000
1000011001
1111111001011100
1111111000001011
1111111100010010
1111110010101001
1001100110
1010100
110011110
1111111010000011
1001000111
111101100
1010101100
100101001
1111100
10100
1111111110101010
111010000
11111001
1011010
1111111111110000
100110011
1111111110110111
110100
11101000
110100010
1111111101001100
1110000011
1011110
11111110
111111100
1100011
1111110110100010
1111111101000001
1100001101
1000011010
110001111
1011000111
1101110000
1010000101
10111010
1000011110
1111111100010101
10101111
111
