1111111100011111
1111111110001000
101101000
1111111111001110
10001010
100010111
1111111111111001
1111111111100010
1111111111100110
1111111111001001
1100101
100110010
11011111
111111101
110001110
1001110000
101000011
1111111001100110
100011011
10010111
10000111
10011
10100111
1111111111110111
1001001000
10010111
111001100
10101001
1111111000111111
1111111110010100
11
1010000010
1111110001000111
1001100
11011011
1111111001110001
10001111
1111111010100000
1111110011101111
1111111011101101
1111111110011100
1111110111010100
1111111100100011
101100
10010001
1111111111101100
1111111011001000
1010100001
1
1111111000111001
1111111001111111
1111111001111111
110011
1111111010001010
111100010
1111111000110010
1000110000
1010011001
1111111111010111
1101
100001100
1111111111111111
1001011
10110011
110011
1111111111011000
1111111101011101
11
1111111011000011
1111111011100000
10100
11011111
10010100110
100001101
1111110111101010
101110
1111110101111100
1111111100100111
110111
100101010
1111110111110111
101011011
100000
1111111111111100
1111111011100101
1111110111110111
1111111110100000
1000111101
100001100
1111111000111011
1111111011101101
1111110
1110111
10110000
1111111111100101
100101010
1111111111011011
1101110111
1111111001100011
1100000000
1111111101001001
1111110111111011
1000011111
1111111110001100
1111111100111101
101100001
1111111110011100
11001011
1100000
1111110011000110
1111111101100011
11011100
1111110100101111
1001001110
1001000100
1111111011110001
1010111
1111110111100111
10011010011
1111111000110000
1111111000100011
101000100
1111111001100010
1111111100101100
1111111001101010
1010100
111110
101011100
1111111010000010
1111111110001011
1111111111111110
11
1111110100100011
11010111
110011110
101110100
1111111110110001
11000101
11000001
1111111001100111
101011110
10010111
1111111100010001
1111111010100110
110001101
1111111000010111
1111111001111110
1111110001111011
1111110111000011
1111111000011101
11000000
1111110111111101
11101
1111110110000011
1111101110001101
1010100
1111110111101101
1111111111001100
1111110101001000
1111111101001100
1111110110010100
101011010
1111111010101110
1111111100101000
1111111000010110
1111100
111111000
1111111111010001
11001001
1111111010100101
111001101
1111111010010010
1111111110110101
1111111101011111
1000100
1111111111111010
1111111101011011
1000
1111111111110100
101100100
101011001
11001010
1010010001
1000011011
11011111
1101000
1111111111010001
1010110
1111111101000001
110110111
1111111110100001
1111111100000001
1111111011000001
1111110010101100
111010111
101000011
10111
110000101
1111111111000011
10001000
1111111111111111
1010110000
11000
1111110011010011
1111111001101101
100011000
1111111100101111
1111111010000001
1000001000
1111111101011001
1000000000
1111110011001010
1011000
100000110
1111110101010100
101000001
1111111110000000
1111111010101010
1111110101001011
1111111100001001
10000100
1111111011001001
1111111010010110
1111111110000110
1111111100010011
101110001
101010110
1111111010100101
100000
1111111000001101
1100001111
11000100
1111111010010010
1111110111100010
1111111101100011
101001110
1111111001011011
1111
1111110101100111
1000110111
