100010001
1111111010101110
1111111101010000
1111110
1111111101011100
1111111110111001
1111111011001100
1111111001100000
1111111100000001
10010110
1111111011010110
1111111010100110
101100001
101100
100000110
1111111100001011
1100100000
1111111110111010
10011001
1000000000
1111111010110111
1111111110100011
1000001100
1100101010
1111111100110000
1111111011001110
1111111110001010
1111111010100100
1111110111111011
1010111010
11101
10100010
1111111111100101
1111111110010101
1111
1111111000110000
1101001
1111111011000101
1
11110000
101110000
1111111111101110
10101100
11011100
110
1111110111001000
11001100
10010101
1111111011110010
1111111100100101
110011000
1011110000
1000101
1111111001011111
111111000
1111111011100101
10110010
1111111110111111
110101111
100110000
1110
1111110111
11100011
1111111100110010
1111111000110111
1111111111111011
1111110101101110
1111111010101110
1111111011011100
1111111110110101
110011000
1111111110000001
100010110
1000010110
1111111111001001
1111111111100000
1100000
1111111110010011
1111111011000001
110000000
11110010
1111110010110100
1111111101010110
1111111100010010
101001101
10011
1111111101001111
100011001
1010110
1111111110011110
111101110
101001100
1111111001110010
1111111000001100
1111111110111010
110101011
1001001
10011001
1011101
1000010
1001011101
1111111100100011
1111111000100010
11001100
11000110
1111111000001100
1000101010
1111011
1111111111101110
1111111100110010
1111111100000100
1111111101001011
1111111010110110
1111111100111010
1111111010100100
1000110000
1111110110111111
1111110110010101
1111110111000110
1111110010
101011000
1111111100101011
110101110
101001000
1111111010011110
1111111111001101
1111111111110101
1111111000101100
1111111110101000
10011110
1111110110100101
1111111111101001
1111111011010010
1111111011101110
100001111
1111111100101111
1010101001
1111111011110100
1100111
1001000
1111111110011010
100011111
101110000
11000100
10101
1111111111001001
11101
1001000010
110101110
1111111001111011
1011100
1111111010101110
1111111101001110
1010001
1111110000100010
100100010
1000010000
1111111110001101
1111111011001001
1101110
10111101
1010010011
111011001
1111111010000010
1111111111001110
1111111101111010
1111111010100010
111000001
110011011
10110101
1111111000100001
1111111110110000
1111111110101101
1111111110100001
100010000
1111111001011100
1001111110
10001100
1111111001111111
100111111
1000010
1011101001
1111111101101000
1111
1111111001101001
1111111110101101
1111111011100100
10110
1111111110000010
1110011
1111111101110101
1111111111100100
1111111110111001
1111111100110010
1111111110110001
0
1101001
1111111001000110
1001011100
101000101
1111111110001010
1111111111111111
1111111111111010
1111111101000111
1011010110
1111110101010111
1111111111011101
1111111011101001
1000111011
1111111111101101
1111111110010001
1000011001
1111111100011000
10001100
11100111
1111111101001110
1000110010
11110
1111111110000010
1111111010111101
1111111010000111
100010
1101010000
10101101
1111111100110101
1111111100001010
1111111101110110
110100001
101101000
1111111101010010
1001111111
1111111100111111
1111111101010101
101100
1111111111100111
1111111101000011
1111111011111100
1000011
1111111101110000
111110101
