10001111
110
11001110
1111111010011100
1111111110010000
110000111
101000
1111111000010000
1011110
1111111101000001
101010011
1111001
100100
1111111100110011
101101101
111011
1111111110100110
1111111101000101
1100101
1111110110011110
111110100
100111111
1111111110001110
1111111110000111
1111111111011101
1111111110101110
10001011
1111111110010110
1111111000010010
101000010
1001000
100011111
1111111110010010
1111111100101101
1111110110101100
1011001
1111110110100000
1111111000010101
110010100
11011000
1111111101111001
1111111111011111
1111111001000100
1111110111010001
10001000
10010000
1111111110101101
1111111001010100
101010110
1111111110111100
1111111110101110
1111111100101010
1111111110010011
1111111100111010
11111111
1111111111101111
100111010
1111111001100111
11010000
101001111
1111111010011000
1111111101111011
1111111111000000
1111101
1111111110111011
1111110101011100
1111111111110100
111101
10001010
11111000
1010110
110110110
1111111000111001
1111111101101001
111001011
1000110110
1001010010
100001110
1111111011101111
1111111111101001
1000010001
1111111101001110
111001
100101011
1111111100111110
1111111001011000
1111110111001111
1111111000111001
1111111101011100
1111111101101101
101011101
1111111011110101
101110010
111101110
1111111001101111
1111111011101000
1111111101011010
1111110010001000
1111111010100100
100000111
100101000
1111111100001001
1001010010
110110010
1111111000011010
1111111000111001
1111111110011110
1000000101
1111111110100111
1011101110
1111111111000011
110000111
1111110011000110
10011001
1111000
1111111110110011
1111111111101010
1111111110101000
1001110010
1111111110010000
110000
1000001
1111111101011100
11001
1111111011111001
101100000
1111100
1100011
111100011
1001100011
1111111111001111
111110001
1111110101010011
11000001
101011010
100000111
1111111001100011
1111111110000010
1111111011101110
111001101
1011110
1111111001100011
1111111011000001
11001000
1111111001001000
10111001
1100101
1111111001010010
10000101
1111110000011111
10010001001
100010110
1111111001010110
1111111001111111
1111111110011001
1111111111110010
10110101
110110100
1111111111101001
111100010
1111110110001011
1111111110001011
111100010
1111111011010100
1111110010110011
1111111011010100
101100101
1111111100000110
1111111100100010
1101001
1111001
1111111010110111
11000000
11110110
1111111101001000
1000010
1111110110001001
111000110
11000001
1111111110010101
1000010
10010001
100110011
1111111110000000
10011110
1111111100111111
1111111101011000
10100010
1111111011001101
11001011
1111111111111111
1111111110100010
1111111101100101
1111111100010101
101101000
1111110111110010
100101010
111010
1111111101110000
1111111110011010
11011110
1111111001110011
10101011
11101010
1111111011111101
111110000
1111111011011110
1111110100000111
101101010
1111111011011111
1111111000001101
1111111101000110
100010101
1111111001101011
1111110010101110
110111
1111111001001110
1111111110111001
1111111101111000
100111110
1111111101101101
101010000
101001000
100000111
111
100111010
111001010
100010100
100111011
1010100010
1111111010100010
1101010
11101
1111110111011000
1111111111001010
11011110
1011000
1010000
1111111010110000
101010
