11001
101110010
1111111110000011
1111110111111110
1100101
1111111010111100
1111111110100110
111000
1111111111010100
1111111101100101
101010100
111001
1111111110110110
10101000
1000
1111110100100100
100111010
1001001
1111111110010000
1011011100
1111111010100001
1111110111011000
1111111111011001
1111111100011011
10110001
100111001
1111110111001001
1111111010011110
1111111100010000
1111111011000011
1001000101
100000110
100111011
1111111101101010
1011011
1111111001111000
100000101
1111111110001100
1111111010010110
1111111101000010
10111
100100010
1111111100101001
1011
1111111100100011
100101000
101000111
101101110
1111111101011011
1111111010100000
1111111101111100
1111111101010001
1100011
100010100
101111101
110001110
1110010
111010011
10100010
1101111
110000011
10001000
1111110110101111
11100000
1111111101010101
1111111100010011
1111110111101001
1111111110010001
1111110110001000
1111110111100011
111110
1111111100101000
1111111001010110
1111111000101001
1001010100
1111111001000101
1111111101111100
100100100
1111111110111000
11100001
10001101
11011001
1111111110010100
1111110111101001
1100
1010000111
1100000110
1111111111000100
1111111110001101
1111111001111110
1111111110001111
10001110
1111111001111010
1111111100001101
111110
1101001001
111
11011101
1111111111010101
11011100
1001011
1111111111010101
10001110110
1111111101010100
1111111110000000
1111110101010101
1111111011010110
1111111101111000
1111111111011111
1111110100000101
1000
1111111000011110
1111111111111111
1001001111
1111110110000101
1111111110000110
1111111011000010
110110001
100000
11111100
111100111
1111111111100000
10000000
1111111100111111
10001111110
1111110011111110
1011000001
110011000
1111111110111111
1100001
1001110111
1111110011010011
10010
11110101
1111111010000111
1001010101
111111
1111111110100100
101101011
1111111111101000
1111111010010101
1111111010110001
1111111101110000
1111111111111001
10000010
111111
1111111100011001
1111111110111110
1011101010
100000111
1111111101000100
100000000
1111110111001111
1111111110001000
11111011
1111100
11100100
1111111011011100
10010001
11110111
1000101001
1001110101
1000101
1111111100101111
1111110011111001
1101011
1111111100010010
1111111000011111
1111111011000010
1111111101111010
1010100101
101111
10010100
11100011
1111111001001100
100000111
1111111011101000
101110110
1110100
1111111000101111
110100111
100001110
1101111
10011110
10001000
1111101111110000
100010100
1111110101000000
100111001
1001000
1111111000101100
1110011101
1111111111111100
1111111110000111
1111111110100001
1101111
10000
11011
101001101
1111111000001011
110011111
1111111110101100
10000110
1111111100000001
1111111011011000
1111111011111100
10011111
1000010010
100101011
1111111110111001
1001001
1111111100111000
1111111100000111
1111111111110110
1111111101011110
1111111100011000
100001100
1111111100001010
0
1111111111111011
1111111110011110
10101111
10010011
1000
100000101
110010110
110100111
11011011
111001
1111111001001001
11100011
111011000
1111110110101101
11111000
1010011001
100001101
111111110
10010110
1010010111
10011101
