1110101
10010
1000110011
1111110010001000
10011
1111111011101101
1111111001011100
110011101
11011010
1111111101101011
100001111
1111111110001010
1111111110101110
11001110
11100101
11011110
1111111010001111
111100
100111001
110100111
1111111110101011
1111111100010111
1111111011100010
1111111111111011
1111111110001000
110010101
1111110110111001
1000001110
10010101111
111011001
10010001
1111111110010101
100011010
1111110101010001
1111111111111111
110100
1111111000000011
101110
1111111101101111
100111100
1111111100010010
110110000
1111110111100101
101001101
1111111001110000
101111001
101011101
1111111110101010
101011
1111111011001100
1111111011001011
110110000
1111111100111010
1111111100000110
1111111011001100
1111111000100000
110110011
11000111
11010101
100011100
11100100
1111111010000001
1000111010
1111111110010100
11001000
1111111000111111
100001100
1111111111011011
1111111010111101
1111111101110001
1111111010000100
101101000
1111111101100111
1111111100000010
1111111101010011
10010100
1111111111101100
1101110
1111111000110110
1010111010
11111100
1111111101101000
11110110
1111110100010011
1111110110000100
11110001
1111111011101111
1111110110110111
1111111100011000
1111111111100000
1001001100
1111110100111000
10101001
1111111001101101
1111111101011100
1111111001011111
1111111100010111
1111111010111001
1111111111011111
100001010
1111111101010000
1111111111110010
1110111101
1010101011
1111111
1111111011101111
1111111110100010
100001111
10000
1100001
1100011101
101101010
100000001
1100000100
1111110010111000
110011010
1011111
1000110
1111111101110100
111000011
111100100
1001000110
1111111101000101
1111111111001100
10110100
111010111
1111110111111101
1111111111100100
1111111001110110
1111110101101011
1111110111101110
101111
1111111001111011
1111111101000000
111110010
1111110100100111
1111111011110001
1111110110110000
1111111011011011
10001101
1111110101010011
110010011
10100011
1111111010011100
1111111000110001
1111111100111110
111001001
1111111001000000
1001100101
1111111101000011
100000
1111111100011001
11001001
1111110111110001
1001111100
1111111111111011
1011011
1111110100101001
111011111
1111111110111010
1010010011
1111111000010000
1111111101100011
1111111110111111
1111111010101010
1111111010100000
11111111
1111111101100011
1111111101100011
1111111110111010
1111110110000110
1111111100100110
1111111000011000
11011100
101100101
1111111100000110
1111111101010111
100101
1111111011110111
1111111011010001
110111010
101111011
1111111100101011
110101101
1111111010011000
1011010111
10101100
1111111011011100
110110001
10110000
1111111101110101
1111111001110010
1111110110000101
1111111100111000
1111111011001101
11000001
1111111110011101
100110011
10010111
111111000
1111111111001111
1100001
101001101
111011100
111101001
1111111010011100
110000
100001100
1111110111001101
10010101
1111111111000001
1111111111001111
1111110101110110
1111111100110111
1111111001110010
1111111100100011
1111110011000011
111010
1111111110100101
1111111000111101
1110000111
1010010000
1000100011
101010101
101100010
1111111101111001
111110101
1111111100100111
10100111
110100011
1111111100000111
111000011
111000001
11101101
1010110011
1111111110111101
1001100010
110110
1001011101
1100111101
