101101000
1111110101010101
1111111100100101
1111111100011010
110100000
100011111
1111111110001111
10110110
1111111111101000
1111110110101010
101110011
1111111010110001
1111111100000010
1111111111000010
1001111
1111111000010011
1111111100110101
1001100
1111111011001011
1111111101101010
11110110
1111111101000100
1111111111110101
1111111111111001
1111111111111111
1111111011100000
1111111010001101
100000111
1111111111110010
1100000011
1111111010011000
1111111111011111
1111110110000010
11011111
1111111101101110
1111110110101001
1001010000
1111111111010011
1111111100111111
110111011
1111111010110101
1000001101
1111111110110010
11001110
101110011
1010000
1111110101000111
100101
1111111110000000
101000010
1111110110101001
10011
101011101
1111111100110011
1111111111101001
110111
100100011
1111111100100010
101110110
1111111101001111
1111111111000010
101001011
1111111100111011
1111111100000001
1000100011
1111111111111000
1010011
1111001
0
11111010
1111110110011101
1111111001100100
1010011
100110000
110101
1000001011
110010101
1111111110110110
1111111100111011
100010000
11001011
1111111001110000
101011
1111110111010100
100010010
111010110
1111110101010001
1111111011110001
1110010
1000100000
1010000100
1111110110100011
1111111010101011
101101001
111110
1111111110101110
1111111100101000
1111111110110110
1111111101111111
1111111110110100
1111111110011011
111111001
100110
11010000
110001011
1111111000100100
1000000000
1011
10000000
1111111101100000
1111110100010101
1111111010100111
10101
1111111101001010
1111110011101100
1111111011111011
1111111110011001
1111111111111001
1111111110110111
110001000
11001110
1111111100001110
1111111101011100
1000010111
1111111100100101
1000101
1111111001000010
1011100111
101100011
101010101
1111111110011101
1111110111100100
1111111100110001
1111111110100101
1111111010111110
1111111110010001
1111111001011001
1111111100001001
1111111101011011
1011110010
1000110
11010101
1111110110010110
1111111110000101
1111111000111000
1111111101111001
101111110
1111110110100111
1001001011
1100111001
101100010
10000000
1111111001001101
11000101
1111111111000110
11001001
1111111101010001
1111110111000011
1111111000000011
101010011
110011000
1111111001111100
1111111011100000
1111110110010100
1111111100001101
1001010001
1000101111
1111111011011111
1111111001101011
11010011
100000111
10010111
1111111001000001
11101010
1111111110101011
1111111000101001
101000011
100000011
10101110
1111111110010101
1111111111011101
1111110110110100
1111110111111000
1111111010001011
100001001
111001111
101001000
1111110111010101
1111111100011000
1111110011011000
1111111010110110
1111111011000001
1111111111011101
1111111100010110
1001101010
110111
100001111
1111111100100001
10010110
1111111101010110
1111111110000010
1111111110100101
100111100
1111110101011000
1111110111110111
110011110
11101100
10000010
1111111110011100
1000100000
1010000001
110100101
1111111101011100
1111111111001010
1111111110010111
1111111101100000
1000100000
1110110
11010
1111111100101101
1111110010110101
100000111
1011111011
1111111101110010
1111111111111001
101100110
110000
1111111101110010
1111111001011110
111000011
101110001
1111111100100110
100101000
1111111111010001
1110110
1111111110100010
1111111010010001
1111111010011001
1111111111010101
1111111110011010
