1111111100000111
1010001011
101000100
11011001
1111111001110001
1000
1111111101101100
1111111111101010
1111111100000100
1101011111
100101011
1111110110111110
10111001
11101010
1111111010011010
1111111011100111
1101111
1111111011000010
111100101
11010011
1111111011000101
100111001
1010010111
111010110
100110100
1111110011001110
101010
110111010
1111111011100111
100000000
11010011
1011110100
11110101
1111111111000011
11011
1111111011000011
1111111110011011
110111100
100101001
1110101
1111111111111011
10110011
100000001
1111111011011100
10010
100111011
1111111100111111
1111111110101100
110101010
1111110000011010
1000010111
1111110111101110
1111111111110100
1111111110100101
1111101101101011
1111111011101000
1111111111001110
1111111100011001
1111111110000011
1111111101100100
1111110101110001
1111110011000001
111111110
110101001
1010000001
1111111110101101
1111111001000001
11
1111110110000110
101100100
10001001
1111111111111011
1111111110001000
1111111010000011
1111111001011010
1111111010000001
110100101
1111101101111011
10011000
1111111101001111
111110101
1111110101000000
101000
10001011
101000100
1111111101101111
1111111000110000
1111110110110100
111010000
1100100111
1111111101100001
1010110
100111
1111111110001011
111111010
111101111
1111111100101110
1001110101
1111111110011100
100011001
1111111100001011
101010111
1111110000110101
1001111100
1111111010110110
1111110000110000
1111111010001011
1111111111000011
10100
1000110000
1111111011001011
1101100
1111000110
1111111011100100
1010111110
1111111110111111
100111
1111111110010100
1001110
101111
1111111101100111
1111110110010001
110100110
1111111111000000
1111110110000101
111101
10100000
110010000
1110100
1111111111011001
1111110011100101
1111111111011110
111100010
1000101010
1010011001
10001010
1111111101010001
111101110
1111111101111100
10010
1101001
1111111010111111
1111111110000001
1111110110000101
1111110111000011
10101010
1111111001001110
1111111110001010
110111001
1111111111111110
1111111001010100
1111111010110100
10
1111111000011101
1111110010100000
1111111110000001
1111111100010100
1001011
1111111100100000
101000000
1111111111011111
1010101011
1101110
1010110100
1111111110001111
1111111000111010
11110111
1111110110000100
100000111
1111111100110111
111010100
1111110110110110
1001111001
1111111101010100
1111111110101110
1111111010010001
100111111
1111110111000010
1111111101110010
10101011
1111110111010100
100001111
1111111111111000
1111110110111011
1111111100111101
1111111100110010
1111111010101001
10001101
100110010
1111111010010100
1111111101101010
11010111
1101
10010011
11001
1010010010
1111111001000001
1111111111011001
110001
111010
1010100
1111111011101111
1101100
101100000
111010101
1101110
1111110101111000
10011110
11111010
1111111101011100
10000010
110011110
1111111110001000
1111111110011111
1111111101001001
100010110
1111110111100111
1110100
1111001
1000001
1111111001101001
1111111101111000
1111111101100001
100000100
110101111
1111111011100011
1111111101000000
11100
10101000
110011001
1111111010101011
1111011011
10110000
1111111100110001
111100
100010110
100110001
10001000101
10100000
1101001
