10100000
1111110101111011
1111111000001100
1110110
11011001
1111111010101000
110001
1111111100100110
1111111010011110
1111111101000101
1111111101101110
1111111000110001
1111111101110010
1111111001011111
1111111100000011
100110111
1111111101010101
10101111
1110000001
10000000
1111111011010000
111010000
1111111101100101
101010101
1011001
11101001
1111110111111000
10111110
100101010
1111111100101000
1111111010110011
1111111101000010
1111111001000001
11101010
1010000011
1111111111110001
110000111
111100101
10110100
1111111100010111
1111110110000001
1111111001001100
100101011
1111111100000110
100010001
100100010
11101000
1111111111100001
101001
1111111010101111
1111111010001010
1111111000010110
100000000
1111111110011100
100010100
1111111111001100
100010001
1000001010
1111111101110010
110000010
1111111011011000
1101011
1111110110111000
1111110110111110
1111111000010100
1111111011011100
10110010
1111111010010010
1111111001010100
1111110111010001
1111111101011010
1111110101000011
10001110
10110
111
1010110
101011
1111111110101110
1100101
1111110110011100
1111111011010010
1001
110101101
1111111111100111
1001000001
1111111001001001
11011000
1100011
1111111101111001
10111111
1111111101011111
1110110
1111111111011000
11110101
1111111100001101
10011111
111111010
100111001
1111010
1111110111000010
1111110011011011
11100011
1111111111101100
1101101001
11111
1011000001
1111111101001010
100101101
1111111111010001
11101001
10011010
101010110
1101111
1111111110011110
110111111
1111111111001010
1111111001001111
1111111010011000
1111111110100100
1111111101111001
111000101
1111111101101010
10000000010
1111111101000010
1111111100000100
1000101110
1110000
1111110110010000
101110
1111111111100111
1111111111100011
1111111110000111
1001110100
10000101
11001011
1111111110000001
1011110100
1111111000101101
10110101
11001000
10001
100101110
1101110
101110100
11011010
101011010
1111111011000101
100000111
1000
10000101
1001010100
1101110
1000011100
1111111110011011
1111111100111110
1111110010111001
1111111101100111
1011100
1010000010
1111111111010101
1001111010
1111111110100011
101000110
1111110011010111
1011101
10101100
101000000
1111111110111101
1111111110011000
101001000
1111111111000100
1111110111100110
100001010
110010000
1111111000011111
1111111100100010
1010101
11011110
100111
1000101
11110001
1111111010100010
1111111101100000
1111111001111101
111000
1111111001100001
100011
10100001
1001001
1100101
10100001
1111111101110110
1111111101100000
1111111101010011
11010001
0
100100
1001
111011001
1111111010000110
1111111110010100
1111110001101011
1111111111111100
1111111001001010
101011
1111111100101001
101011110
1000110110
1111111110001101
101110011
1111111110111100
110110
1111110111110010
110010001
1111111110000011
1111111110001010
1111111000110101
1111111101111011
11011
1000110101
1101110
1111111010111111
1001000001
1111111010001000
1111111011010101
1001
1111111110000110
100000100
1111111011001010
100010001
11101001
1000001010
101010000
1011100
1111111111101100
1111111100011100
110110011
101001100
1111111100010010
1111111101110000
