111011010
1111111100111111
11111111
1111111010100110
1110000
111110100
1111111001000011
1111110101011001
1101001
1111111100101110
11100110
1111111101101010
1111111001001110
11100000
100001101
1101101001
1111111000001111
110101110
1111111110011011
1111111110101101
1111111100110101
1111111010000111
1111110101001001
1111111001011101
10010001
11110001
101001101
111010111
111101
1111111001111001
10110001
1111110111000000
11000
11111110
1111111110101111
1111111100110000
1111111000011001
100011010
111100001
1111111110110101
1111111111001111
1111111100011110
110111111
10111010
100101
1000111111
101101110
0
1111111111011110
1111111101101011
111010000
101011100
1010111
1111111011110101
1111111100011110
1101100
101001111
1000110010
1000101
10101011
1111111101011111
1111111000100010
1111111101010100
1111111011010111
1111111110000011
100000011
1111111011000110
101101
1110111
1111111100000111
1111111110011001
1111110111111110
1111110110110101
111101
11111011
100011000
1111111011111001
1111111111000010
1111111100111100
1111111001110010
10010111
1111111011110100
1111111110111011
111111
1111111101101000
1001011110
1111110111111100
11101110
1111110111101110
1111111111111100
101011111
1111111110011110
111011011
11011011
101011110
1111111100001010
1111111100000000
1111111111011111
1111110101010011
1111
111110111
1111111111000100
1111111001101001
1110010001
1000010110
1111110111101110
1111110101111011
1001001
1111111000000011
1111111011010101
10100001
1110001
1111111010111011
1111111011110000
110100011
1111111100010110
100111
10001111
110101001
1111111010011010
110000010
100100111
1111111100110001
10010110
1111111
1111111011110110
11001110
1111111110011101
1111111101011111
111010010
1111111010000001
11010100
1111111111001110
1111111101101110
1111111000101110
101111
1111111010011010
1011111011
101010101
1000011000
10100101
1111111110111010
10111011
111110000
1111111000010111
1111111001101110
101001001
111100000
1110000
1111111000110101
1111111010000100
1111111010110110
1111111110111001
110001000
1111111100010100
1111111011010000
1111111010010101
10000010
1111111110001111
1110111
1111110111101010
1101011
111101010
1010
1111111111010111
110111100
10010001
1111111010001010
1111111100110010
10010111
110001101
1111110001111001
1111111100010011
1111111110111010
1111111111011011
100000010
1111111011001101
1111111001110011
1111001
1111111101001100
1111111110011100
1111111000011000
110101011
1111111000100000
11101000
1111111011101001
1000001111
1111111000110101
1111111001001111
1001100101
1111111011011010
1011011
1000100001
1111111011000101
1111111101100111
1111111000010000
1111111111101100
1101
1010010011
10101001
1111111101001100
1111111111011010
101011000
1100011
1111111100110001
1001001
111100
100010101
1111111010101011
1011011
1111110011101100
1111111101011001
1000110111
110011100
1111111111101010
101010100
1111111011111000
1111111111000001
1111110011110010
1111111001110110
1011010010
1110100
1111110111101100
1010111
1111111010110111
1111111010111111
110111001
1111111111111010
1001110001
1111111111001010
10011001
1111110101010100
1111111101110010
1111111101101001
1111111111011000
1111111101000110
1111111110001101
100010100
1111101001010010
1111001000
