10001011
11010000
100001101
1111111010111010
11000110
11000110
1111111011100010
110110011
100111
1111111110001001
1111111001010100
11100101
1111111100001100
1111111000111100
101001001
1111111110110000
1111111100101111
1111111111001111
110001101
11001010
1111111011110111
1000000
1111111100001010
1110100
1111110110011101
1111110011011010
100
1111111110110110
11001100
1111111010011110
11111001
1110
1111111101101010
11101100
1111111110110000
10100001
1111111111011001
1111111100100000
1111111010011111
100101001
100100010
100010100
1110010
1111111010111101
1011100
1000000000
100001001
1000000100
1111111110001011
111110100
1111111010010110
1111111100100100
1111111111001000
1111111110100000
1001110
1111111111011111
1111111010101100
1111111100000100
1010010101
1111111100001001
1111111001110001
1111111010111010
1000101110
1
1111111011011110
1001110
111110110
1111111111011101
1111111111001110
1111101111011111
1111111110001010
1111111101101110
110011
1111111100000011
1100101
1111111110101010
100100011
1111111101110110
110001110
1111110110011000
1111111111010100
1111111110000000
1111110100010111
1011001111
1101101
1111111110100010
1111111001101100
101011111
1111111011101101
1111111011011000
1111111010100010
111110011
1111111100011101
100010101
10011010
1111111110000000
1111111011000110
1111111010000110
11000010
101001011
1111111111011110
1000110000
1111111011010100
1111111101001111
1010000001
1111111101111011
1111111111010111
111011011
1110110011
101000100
1111111111011011
11011
100100011
1001000010
1111111010100111
1111111111010111
1111111110000001
1111111110001111
1111110100001011
1111111111111001
1011101110
1111111101011111
1111111101100010
10
1111111101100110
1111111001011010
1100111
1111111111001110
10100100
1111111001111000
100110101
1011110000
1111111111010001
1001101
101001100
111001100
100001001
1111111011110100
1111111011001111
101010
1111110101010011
1001100101
1111111011110000
1111111110111011
1111111101111000
1111111001101111
1111110110110100
1111111010011111
111111
1111111110011011
1100
111010
1111111101011010
1001011
1111111111001011
10010111
1111110
1111111110011011
1010010
1010010111
110000100
1111101001
101100011
110011100
1111111010001011
100101000
1111111010001101
11101010
100010
1111111101111100
1111111001011100
100010111
11010110
1111111111001001
1001001
10111101
1111111001110101
1111111101011001
100111111
11011111
1111111101111010
1111111100110110
111101111
1011101010
1111111001101011
1111111110100000
1111111111001111
1111111010011110
11011111
1111111101101011
1111110111110010
1111111010110000
1111111111101101
1111111110100111
1000101
1111110101100011
1001101001
11101001
1001001
1000001111
1111111101110000
100011010
111101100
1111110101010100
111011001
10000000
1111111101110011
100100001
1111111111010110
1101101
110110001
1111111010001001
111010110
111000100
11010001
1100010
11111100
10100010
1001010
1111111100101100
1111111111100111
1111111011110011
1111111101011100
1111111001001110
1111111100100011
1111111001001001
1111111100000101
1010000
100010101
100100000
1111111100101110
1111110110000111
1111110111001111
110100000
10110001
100001001
100100001
1111111001000111
1111111100110011
1111111100100010
