1111110101100001
10110001110
100001101110
10110000011
1111101110000111
1111110000100110
101100100
110110111
11011111
1111010100011110
1111111100100111
10001101101
1111101000111001
1000111011
1001000110
1111111001101111
1111010010111011
1111101101101101
1111101100011101
1111110111110110
