1000111
1111100010110010
1111110011100001
1111110111100111
1111111000000000
1111111111111110
1111101111110110
1111111101010010
1111110110110001
11011010010
1111101101001110
1110001
1111101001010101
1111011111010001
100001100101
10010001001
1111110111110011
1110011000
10110101011
10011110001
