1111111110000100
1111111000010011
10100011101
1111010101111000
1111011001011101
1111111101010011
1100001
10010000011
1000111101
1111100110
1010011111
1111111100010000
1111110100001010
1111011101100110
1111111110010110
11000001111
1111110101010101
1111000011011110
1010100
1000010011
