1111101110000011
10110010101
1111100101111111
1111011000100000
1111110110111001
111100000
10101110011
1111101100010100
1111101101000000
100011010
1100111111
11101001
1111110000101000
1111110011010110
1100110001
1111110010010110
1111111100011000
1111101000011000
1111110100100001
1111011010
