1111110001000011
100110000
1111001011110110
1111101100010010
1111110000101110
110100010
1111100001001101
11001110000
1111110001110110
100001110001
1111111010011110
101010111001
1111100000010101
1111000100
10111100
1111001011011000
1110001101
10011011100
1111110100111100
1011100100
