1111110111011111
1111111000011100
1111111000100110
1101111110
1111110001001101
110110001
10011001000
1111100010011000
11101
101011000
1111110000011110
1111101111001000
1111111010011100
11011111111
1111111011000111
10101100101
1111111001010001
111010110101
1111101110110100
1111101111101100
