1111100110111101
1111111100010010
1111101110000001
1100100100
1111111110101011
1111101010000001
1111111110001010
110110000
1011011001
1101110101
1111111110010100
11110010010
11101011111
1111110010101110
1001010100
11000101001
1111111101111011
1111110101100000
11111110000
1111100100010100
