1111110100001110
1100110111
1111111101011100
11100110100
1111011010111000
1111110000111111
1111100010110101
1011011011
1111111101010100
1111100111101110
11100111010
1111111001111101
1000010100
1111011011011010
1111111111101001
1111111011101101
10110000011
1111110101000100
1111110111111011
1111100100110011
