1111101001101111
1001001110
1110011111
1111001101110110
1111110011111110
101110101110
1111110001110110
100111011000
1111111001110000
10100001110
100000110001
1111100111010010
1111110101110001
1111010110110100
1111111111011100
1111110110010110
1111101010100010
1111111110100110
1111111111110001
11110001
